unsigned char model_quant_tflite[] = {
  0x1c, 0x00, 0x00, 0x00, 0x54, 0x46, 0x4c, 0x33, 0x14, 0x00, 0x20, 0x00,
  0x1c, 0x00, 0x18, 0x00, 0x14, 0x00, 0x10, 0x00, 0x0c, 0x00, 0x00, 0x00,
  0x08, 0x00, 0x04, 0x00, 0x14, 0x00, 0x00, 0x00, 0x1c, 0x00, 0x00, 0x00,
  0x94, 0x00, 0x00, 0x00, 0xec, 0x00, 0x00, 0x00, 0x70, 0x0c, 0x00, 0x00,
  0x80, 0x0c, 0x00, 0x00, 0x60, 0x1b, 0x00, 0x00, 0x03, 0x00, 0x00, 0x00,
  0x01, 0x00, 0x00, 0x00, 0x10, 0x00, 0x00, 0x00, 0x00, 0x00, 0x0a, 0x00,
  0x10, 0x00, 0x0c, 0x00, 0x08, 0x00, 0x04, 0x00, 0x0a, 0x00, 0x00, 0x00,
  0x0c, 0x00, 0x00, 0x00, 0x1c, 0x00, 0x00, 0x00, 0x3c, 0x00, 0x00, 0x00,
  0x0f, 0x00, 0x00, 0x00, 0x73, 0x65, 0x72, 0x76, 0x69, 0x6e, 0x67, 0x5f,
  0x64, 0x65, 0x66, 0x61, 0x75, 0x6c, 0x74, 0x00, 0x01, 0x00, 0x00, 0x00,
  0x04, 0x00, 0x00, 0x00, 0x94, 0xff, 0xff, 0xff, 0x09, 0x00, 0x00, 0x00,
  0x04, 0x00, 0x00, 0x00, 0x08, 0x00, 0x00, 0x00, 0x6f, 0x75, 0x74, 0x70,
  0x75, 0x74, 0x5f, 0x30, 0x00, 0x00, 0x00, 0x00, 0x01, 0x00, 0x00, 0x00,
  0x04, 0x00, 0x00, 0x00, 0x22, 0xf4, 0xff, 0xff, 0x04, 0x00, 0x00, 0x00,
  0x0b, 0x00, 0x00, 0x00, 0x69, 0x6e, 0x70, 0x75, 0x74, 0x5f, 0x6c, 0x61,
  0x79, 0x65, 0x72, 0x00, 0x02, 0x00, 0x00, 0x00, 0x34, 0x00, 0x00, 0x00,
  0x04, 0x00, 0x00, 0x00, 0xdc, 0xff, 0xff, 0xff, 0x0c, 0x00, 0x00, 0x00,
  0x04, 0x00, 0x00, 0x00, 0x13, 0x00, 0x00, 0x00, 0x43, 0x4f, 0x4e, 0x56,
  0x45, 0x52, 0x53, 0x49, 0x4f, 0x4e, 0x5f, 0x4d, 0x45, 0x54, 0x41, 0x44,
  0x41, 0x54, 0x41, 0x00, 0x08, 0x00, 0x0c, 0x00, 0x08, 0x00, 0x04, 0x00,
  0x08, 0x00, 0x00, 0x00, 0x0b, 0x00, 0x00, 0x00, 0x04, 0x00, 0x00, 0x00,
  0x13, 0x00, 0x00, 0x00, 0x6d, 0x69, 0x6e, 0x5f, 0x72, 0x75, 0x6e, 0x74,
  0x69, 0x6d, 0x65, 0x5f, 0x76, 0x65, 0x72, 0x73, 0x69, 0x6f, 0x6e, 0x00,
  0x0d, 0x00, 0x00, 0x00, 0x80, 0x0b, 0x00, 0x00, 0x78, 0x0b, 0x00, 0x00,
  0x64, 0x0b, 0x00, 0x00, 0x2c, 0x0b, 0x00, 0x00, 0x9c, 0x0a, 0x00, 0x00,
  0x8c, 0x02, 0x00, 0x00, 0x7c, 0x01, 0x00, 0x00, 0xac, 0x00, 0x00, 0x00,
  0xa4, 0x00, 0x00, 0x00, 0x9c, 0x00, 0x00, 0x00, 0x94, 0x00, 0x00, 0x00,
  0x74, 0x00, 0x00, 0x00, 0x04, 0x00, 0x00, 0x00, 0xce, 0xf4, 0xff, 0xff,
  0x04, 0x00, 0x00, 0x00, 0x60, 0x00, 0x00, 0x00, 0x0c, 0x00, 0x00, 0x00,
  0x08, 0x00, 0x0e, 0x00, 0x08, 0x00, 0x04, 0x00, 0x08, 0x00, 0x00, 0x00,
  0x10, 0x00, 0x00, 0x00, 0x28, 0x00, 0x00, 0x00, 0x00, 0x00, 0x06, 0x00,
  0x08, 0x00, 0x04, 0x00, 0x06, 0x00, 0x00, 0x00, 0x04, 0x00, 0x00, 0x00,
  0x01, 0x00, 0x00, 0x00, 0xeb, 0x03, 0x00, 0x00, 0x0c, 0x00, 0x18, 0x00,
  0x14, 0x00, 0x10, 0x00, 0x0c, 0x00, 0x04, 0x00, 0x0c, 0x00, 0x00, 0x00,
  0xbc, 0x5b, 0xa5, 0x3b, 0xe0, 0xa7, 0x7a, 0x42, 0x02, 0x00, 0x00, 0x00,
  0x02, 0x00, 0x00, 0x00, 0x04, 0x00, 0x00, 0x00, 0x06, 0x00, 0x00, 0x00,
  0x32, 0x2e, 0x32, 0x30, 0x2e, 0x30, 0x00, 0x00, 0x3a, 0xf5, 0xff, 0xff,
  0x04, 0x00, 0x00, 0x00, 0x10, 0x00, 0x00, 0x00, 0x31, 0x2e, 0x31, 0x34,
  0x2e, 0x30, 0x00, 0x00, 0x00, 0x00, 0x00, 0x00, 0x00, 0x00, 0x00, 0x00,
  0xc4, 0xf4, 0xff, 0xff, 0xc8, 0xf4, 0xff, 0xff, 0xcc, 0xf4, 0xff, 0xff,
  0x62, 0xf5, 0xff, 0xff, 0x04, 0x00, 0x00, 0x00, 0xc0, 0x00, 0x00, 0x00,
  0xa9, 0x38, 0x7f, 0xb4, 0xa3, 0x81, 0x59, 0x1c, 0x81, 0x81, 0xf0, 0xf4,
  0x81, 0xac, 0xdb, 0xe2, 0x81, 0xe6, 0x9d, 0xab, 0x81, 0x7f, 0xb5, 0x60,
  0x88, 0x7f, 0xec, 0x17, 0x41, 0x81, 0x1d, 0x8a, 0x7f, 0xbe, 0xc8, 0x7f,
  0x7f, 0x92, 0x7b, 0x10, 0x6b, 0x81, 0xd9, 0x96, 0x7f, 0x0b, 0x68, 0x81,
  0x7f, 0x6a, 0x99, 0x2d, 0x9f, 0x81, 0xd7, 0x51, 0x81, 0xf6, 0x7f, 0x3c,
  0x59, 0xe8, 0x81, 0xae, 0x7f, 0xa0, 0x7f, 0x95, 0x38, 0x81, 0x8c, 0xdc,
  0xdd, 0x81, 0xff, 0x81, 0xd8, 0x8f, 0x9f, 0x81, 0xea, 0x7f, 0xfa, 0x5d,
  0x7f, 0x68, 0x56, 0x40, 0x81, 0x41, 0x7f, 0x9c, 0x38, 0x3b, 0x3f, 0x7f,
  0x81, 0xc6, 0x7e, 0x81, 0xe7, 0x0a, 0xa6, 0x61, 0x7f, 0x7f, 0x74, 0x5c,
  0x43, 0x7f, 0x6b, 0xac, 0xe1, 0x7f, 0xd8, 0x81, 0x4f, 0x84, 0x7f, 0x2a,
  0x81, 0xa1, 0xe6, 0x7f, 0xfc, 0x9b, 0x1b, 0x94, 0x81, 0xcb, 0x6d, 0x81,
  0x72, 0x98, 0x7f, 0x7f, 0xe4, 0x91, 0x7c, 0x86, 0x7f, 0xb3, 0x87, 0x81,
  0x8a, 0x7f, 0xf6, 0x34, 0x1f, 0x7f, 0x7f, 0x57, 0x0f, 0x92, 0x86, 0x81,
  0x7f, 0x3e, 0xc4, 0x81, 0xd5, 0x1a, 0x54, 0x0c, 0x81, 0x81, 0x88, 0xf8,
  0xa5, 0x7f, 0x38, 0xf0, 0x75, 0x7f, 0x81, 0x1a, 0x47, 0x8e, 0x7f, 0x14,
  0x26, 0x13, 0x7f, 0x7f, 0xcf, 0x0f, 0x81, 0xf5, 0x12, 0x81, 0xd3, 0x41,
  0x2e, 0xf6, 0xff, 0xff, 0x04, 0x00, 0x00, 0x00, 0x00, 0x01, 0x00, 0x00,
  0xd4, 0x24, 0x00, 0x00, 0x00, 0x00, 0x00, 0x00, 0x1c, 0xe8, 0xff, 0xff,
  0x00, 0x00, 0x00, 0x00, 0x00, 0x00, 0x00, 0x00, 0x00, 0x00, 0x00, 0x00,
  0x00, 0x00, 0x00, 0x00, 0x52, 0x27, 0x00, 0x00, 0x87, 0x3c, 0x00, 0x00,
  0x5e, 0x18, 0x00, 0x00, 0x92, 0xfd, 0xff, 0xff, 0x77, 0x03, 0x00, 0x00,
  0x9a, 0x0d, 0x00, 0x00, 0xc7, 0x01, 0x00, 0x00, 0x2a, 0x15, 0x00, 0x00,
  0xb1, 0xfe, 0xff, 0xff, 0xb6, 0x03, 0x00, 0x00, 0x2f, 0xf1, 0xff, 0xff,
  0xed, 0xf0, 0xff, 0xff, 0x61, 0x0a, 0x00, 0x00, 0x2f, 0x0e, 0x00, 0x00,
  0xd3, 0x0e, 0x00, 0x00, 0x4f, 0x09, 0x00, 0x00, 0x00, 0x00, 0x00, 0x00,
  0x00, 0x00, 0x00, 0x00, 0x00, 0x00, 0x00, 0x00, 0x00, 0x00, 0x00, 0x00,
  0xc0, 0x06, 0x00, 0x00, 0xf5, 0xf2, 0xff, 0xff, 0xbe, 0x1b, 0x00, 0x00,
  0xe7, 0x0d, 0x00, 0x00, 0x33, 0xe9, 0xff, 0xff, 0xb0, 0x42, 0x00, 0x00,
  0xef, 0xf8, 0xff, 0xff, 0x93, 0x18, 0x00, 0x00, 0xdb, 0x10, 0x00, 0x00,
  0x18, 0x14, 0x00, 0x00, 0x2b, 0x11, 0x00, 0x00, 0x19, 0x03, 0x00, 0x00,
  0xc1, 0x43, 0x00, 0x00, 0x00, 0x00, 0x00, 0x00, 0x25, 0x07, 0x00, 0x00,
  0x9a, 0xf7, 0xff, 0xff, 0x3b, 0xd8, 0xff, 0xff, 0x89, 0x0d, 0x00, 0x00,
  0x71, 0x0d, 0x00, 0x00, 0x2d, 0x1a, 0x00, 0x00, 0x00, 0x00, 0x00, 0x00,
  0xea, 0x24, 0x00, 0x00, 0x79, 0x06, 0x00, 0x00, 0x06, 0x07, 0x00, 0x00,
  0x00, 0x00, 0x00, 0x00, 0xc4, 0xfe, 0xff, 0xff, 0x44, 0xf8, 0xff, 0xff,
  0xea, 0x1c, 0x00, 0x00, 0x00, 0x00, 0x00, 0x00, 0x25, 0x00, 0x00, 0x00,
  0xc8, 0xfc, 0xff, 0xff, 0xcb, 0x58, 0x00, 0x00, 0xc0, 0x20, 0x00, 0x00,
  0x40, 0xee, 0xff, 0xff, 0xb8, 0x06, 0x00, 0x00, 0x76, 0xf9, 0xff, 0xff,
  0xe2, 0xf4, 0xff, 0xff, 0x3a, 0xf7, 0xff, 0xff, 0x04, 0x00, 0x00, 0x00,
  0x00, 0x08, 0x00, 0x00, 0xce, 0x53, 0xd3, 0x4a, 0xbc, 0x9f, 0xd7, 0xbe,
  0x39, 0x6d, 0x43, 0xd4, 0x71, 0x5c, 0x8c, 0x29, 0x2e, 0xfc, 0xc1, 0x4a,
  0x04, 0x10, 0xf9, 0x22, 0xad, 0x50, 0x39, 0x09, 0x6a, 0x7f, 0x74, 0x1b,
  0x4b, 0xe4, 0xd9, 0x0a, 0x5d, 0x54, 0xa1, 0x27, 0xf2, 0x57, 0xb0, 0xce,
  0x08, 0xcd, 0x58, 0x41, 0x9a, 0xe1, 0x0a, 0xfb, 0x0e, 0xd6, 0xda, 0x12,
  0x54, 0x56, 0x41, 0xa3, 0x1b, 0xb2, 0x28, 0xe9, 0x18, 0xf0, 0xe4, 0xe1,
  0x40, 0x35, 0x48, 0x24, 0xf4, 0x1d, 0x3a, 0xfe, 0xb4, 0xe3, 0xec, 0xff,
  0x33, 0x1a, 0x10, 0x45, 0x39, 0x12, 0x04, 0xc6, 0xb8, 0x42, 0xfd, 0xdf,
  0xef, 0x7f, 0xa7, 0xec, 0xac, 0x08, 0x0c, 0xbf, 0x06, 0xc8, 0x05, 0x23,
  0x1b, 0xbc, 0xea, 0xf0, 0x0d, 0x23, 0x03, 0xf4, 0x5a, 0xe7, 0xf5, 0x05,
  0x18, 0xd5, 0x0e, 0xce, 0x26, 0x14, 0xbe, 0x3f, 0xb9, 0xd9, 0xc3, 0x28,
  0x7f, 0x44, 0xfa, 0xe5, 0x05, 0x9f, 0x0f, 0xc3, 0x18, 0xa3, 0xb2, 0x57,
  0xee, 0x37, 0xa7, 0xe3, 0x91, 0x70, 0x45, 0x9f, 0x3b, 0xa0, 0x7b, 0x6d,
  0xc6, 0x30, 0x8d, 0x83, 0xbe, 0xdc, 0x06, 0x71, 0x1d, 0xa8, 0x14, 0x28,
  0xfb, 0x96, 0x48, 0x0b, 0x28, 0x86, 0xc4, 0x60, 0xdb, 0x05, 0xbc, 0xf3,
  0x2c, 0xbb, 0xfe, 0x9f, 0xd7, 0xf3, 0x77, 0x0e, 0x64, 0xaa, 0xe9, 0x27,
  0xde, 0xbd, 0xb1, 0x83, 0xf7, 0x56, 0x34, 0x22, 0xe6, 0xdc, 0xdf, 0x2b,
  0xe5, 0x78, 0xd8, 0xb9, 0x71, 0xe2, 0xe7, 0xd7, 0x29, 0xe4, 0xb1, 0xe7,
  0xfa, 0x4e, 0x7f, 0xac, 0x19, 0xb8, 0x08, 0xe5, 0xd6, 0x4a, 0x0f, 0x03,
  0xa6, 0xb6, 0xb8, 0x5b, 0x3b, 0xe7, 0xe1, 0x4b, 0xf6, 0xd6, 0x24, 0xcf,
  0x62, 0xcb, 0x18, 0x28, 0xe7, 0xed, 0xda, 0xa1, 0x6e, 0x23, 0x6d, 0x46,
  0x43, 0xfa, 0xe9, 0x24, 0x40, 0x1d, 0x4d, 0x48, 0xaf, 0xf9, 0x5e, 0x14,
  0x37, 0x37, 0x1d, 0x50, 0x46, 0x2a, 0x1b, 0xed, 0xac, 0x51, 0x47, 0x9a,
  0x4c, 0x42, 0xbe, 0x1b, 0xfa, 0x00, 0x23, 0x35, 0x2c, 0xc6, 0x32, 0x25,
  0x13, 0x84, 0xf3, 0x3e, 0xc8, 0xff, 0xa8, 0x5e, 0x3d, 0xcb, 0x42, 0xb5,
  0xe8, 0x45, 0x67, 0x03, 0x81, 0xc1, 0xfc, 0x3d, 0xbf, 0x53, 0x11, 0x58,
  0x49, 0xf8, 0x9b, 0x29, 0xc2, 0x02, 0x59, 0x3c, 0x60, 0xee, 0x24, 0xe6,
  0x57, 0xeb, 0x8a, 0xdd, 0xc7, 0x39, 0x53, 0x23, 0x74, 0x18, 0xfc, 0x7f,
  0x2f, 0xb4, 0x37, 0xf3, 0xf4, 0x0d, 0xd6, 0xcb, 0x41, 0x52, 0x9c, 0x2f,
  0xa9, 0x15, 0x2e, 0xd5, 0xd3, 0x31, 0xb3, 0x31, 0x3f, 0x13, 0x0a, 0xe6,
  0x6e, 0xc4, 0xc7, 0x7b, 0x0a, 0xed, 0xd4, 0xeb, 0xcb, 0x3f, 0xf5, 0x50,
  0x52, 0xb7, 0x59, 0xea, 0xd8, 0xb7, 0x88, 0x0a, 0xbe, 0x40, 0x21, 0xfd,
  0x5b, 0xed, 0xe0, 0x6b, 0x41, 0x13, 0xef, 0xc7, 0xa5, 0x21, 0xfe, 0xde,
  0x49, 0x81, 0xae, 0xd1, 0x19, 0x1d, 0xd5, 0x23, 0x0b, 0x11, 0x90, 0xb8,
  0xdd, 0xeb, 0x58, 0xb6, 0xb7, 0x91, 0x17, 0x61, 0xf7, 0xd8, 0xbe, 0xea,
  0xf7, 0xe5, 0xd3, 0x88, 0x8d, 0x9b, 0x52, 0xb8, 0xdd, 0xb1, 0x10, 0xa8,
  0xde, 0x09, 0x56, 0x6f, 0xd1, 0x51, 0xb6, 0x20, 0x30, 0xaf, 0x2c, 0x2b,
  0x5a, 0x36, 0x01, 0x8e, 0x55, 0x2d, 0xc4, 0xb5, 0xdc, 0x36, 0x48, 0x3f,
  0x1f, 0xdd, 0xce, 0x5a, 0x30, 0x5a, 0xb9, 0xf8, 0x3a, 0xc4, 0xff, 0xec,
  0xcf, 0x3a, 0xc9, 0x3e, 0xcb, 0xf0, 0x61, 0xd0, 0xc4, 0xba, 0xc8, 0xeb,
  0x13, 0x54, 0x2a, 0x40, 0xbf, 0x31, 0xec, 0xd0, 0x4a, 0x81, 0x27, 0xd9,
  0xfc, 0x5e, 0x31, 0xb7, 0xda, 0x57, 0x0c, 0x40, 0xea, 0x44, 0xdd, 0xf0,
  0xcb, 0x46, 0x15, 0x30, 0x3a, 0xc1, 0xd2, 0xdc, 0x3f, 0x5b, 0x3a, 0x08,
  0xc2, 0xf9, 0x32, 0xe8, 0x43, 0x03, 0x9c, 0x3f, 0x44, 0x2c, 0xcb, 0xfe,
  0xf9, 0x7d, 0xf0, 0x33, 0xe2, 0x5b, 0x1a, 0x2b, 0x28, 0x1f, 0xc4, 0x2e,
  0x58, 0x0d, 0x50, 0x2a, 0x27, 0x7f, 0x6d, 0x3e, 0x50, 0x67, 0xcc, 0xca,
  0x6a, 0xe1, 0x58, 0x42, 0x14, 0x19, 0x18, 0xda, 0x29, 0x31, 0x57, 0x48,
  0xfb, 0x3f, 0xff, 0x62, 0x5f, 0x32, 0x78, 0xb5, 0xb2, 0xf2, 0xf8, 0x06,
  0xe0, 0xb3, 0xb3, 0xe6, 0xce, 0xbe, 0xed, 0x7f, 0x75, 0x2a, 0x7f, 0x98,
  0x09, 0xae, 0x1a, 0x99, 0xcc, 0x3f, 0x9a, 0xfe, 0xb4, 0x89, 0xc7, 0x09,
  0x33, 0xed, 0xb6, 0xce, 0x53, 0xc2, 0x65, 0x5f, 0x09, 0xa5, 0x8c, 0x56,
  0x27, 0xcc, 0x88, 0xce, 0xad, 0xf1, 0x44, 0x28, 0xd9, 0x71, 0x77, 0x06,
  0xbb, 0x65, 0xe8, 0x09, 0x10, 0xb3, 0xe1, 0xd1, 0x50, 0x33, 0x66, 0x38,
  0x3a, 0x93, 0x54, 0xe9, 0xf6, 0xdf, 0xd0, 0xc6, 0xd6, 0xe4, 0xd7, 0x29,
  0xc7, 0xc3, 0xd2, 0x32, 0x39, 0xde, 0xf4, 0x2a, 0xdb, 0xc3, 0x0d, 0xf6,
  0xb6, 0xbc, 0xf5, 0x29, 0xc8, 0x43, 0x30, 0xf9, 0x03, 0x26, 0x1b, 0xfe,
  0x14, 0xf3, 0xc3, 0x04, 0x34, 0x20, 0x39, 0x00, 0xe0, 0xf8, 0xf1, 0xf4,
  0xef, 0xe1, 0x0b, 0x0a, 0xa0, 0x81, 0xf9, 0xe9, 0x3b, 0xc2, 0xb4, 0x00,
  0x03, 0xef, 0x21, 0x1c, 0x38, 0xe6, 0x57, 0x0b, 0xdf, 0x0c, 0xbf, 0x07,
  0xeb, 0x02, 0xd5, 0xa2, 0x65, 0xa1, 0xd0, 0x15, 0xb9, 0x4f, 0x9c, 0xf9,
  0xc5, 0xe5, 0x83, 0x4f, 0xe2, 0x27, 0xfd, 0x29, 0x5c, 0xcd, 0x79, 0xa0,
  0x01, 0xc1, 0x37, 0xca, 0x51, 0xe5, 0xf8, 0x35, 0x9f, 0x46, 0x70, 0x7b,
  0x48, 0x93, 0xcc, 0xe5, 0xed, 0x14, 0x64, 0xc0, 0x7d, 0x63, 0x63, 0x37,
  0xf8, 0x0f, 0x6f, 0xe6, 0x70, 0x50, 0x7f, 0x93, 0x45, 0xa6, 0xac, 0x8d,
  0x16, 0xdc, 0x04, 0x27, 0xce, 0xb5, 0xd3, 0xd7, 0xeb, 0xab, 0xee, 0xea,
  0x8c, 0xd8, 0x9b, 0xc6, 0xab, 0xee, 0x6a, 0xb5, 0x6d, 0x5b, 0xcf, 0x07,
  0xe6, 0xd0, 0xef, 0x10, 0x2a, 0x72, 0xb0, 0x81, 0xe9, 0x59, 0x2f, 0x2d,
  0x00, 0x49, 0x58, 0xa1, 0xb7, 0x02, 0x52, 0xcb, 0x4f, 0xdf, 0x77, 0x8c,
  0x42, 0xff, 0xaa, 0xc9, 0x69, 0x42, 0xea, 0xfc, 0x95, 0x67, 0x2c, 0x9d,
  0x5d, 0x93, 0x26, 0xbd, 0xed, 0xb6, 0xd6, 0xd9, 0x95, 0x81, 0x85, 0x54,
  0xe6, 0x51, 0xf1, 0xb8, 0x59, 0x49, 0xb9, 0x89, 0xe2, 0xfd, 0x9b, 0xd5,
  0xdb, 0x12, 0xc3, 0xe1, 0x55, 0xea, 0x16, 0xf5, 0x10, 0xdb, 0x3b, 0xc5,
  0x27, 0x30, 0x10, 0x4b, 0x14, 0xea, 0x33, 0xc9, 0x2d, 0xef, 0x47, 0xfc,
  0xbf, 0x41, 0xac, 0xe9, 0x94, 0xab, 0xd8, 0x5e, 0x60, 0x12, 0x4c, 0x2a,
  0x47, 0x30, 0x02, 0x73, 0xd8, 0x8b, 0x4f, 0xd0, 0x53, 0x1a, 0x5c, 0xae,
  0xd0, 0xc5, 0x76, 0xba, 0x35, 0x05, 0xae, 0xf0, 0x7f, 0x02, 0xb1, 0x98,
  0xda, 0xad, 0xd4, 0x77, 0xf4, 0xb7, 0xe3, 0x74, 0xfa, 0xdd, 0x3a, 0x49,
  0x29, 0x19, 0x19, 0xe7, 0x63, 0x8b, 0xcc, 0xc1, 0xe3, 0xc1, 0x52, 0xb9,
  0x99, 0x1b, 0xae, 0x54, 0x78, 0xf4, 0x8c, 0xf9, 0x4d, 0x67, 0x07, 0xb2,
  0x58, 0xc4, 0xa8, 0x1d, 0xc5, 0x29, 0x75, 0x11, 0xd1, 0x81, 0x83, 0x93,
  0xe8, 0xed, 0x5a, 0x41, 0x5a, 0x57, 0xf1, 0x15, 0x1a, 0xa2, 0xba, 0xae,
  0xe4, 0x08, 0xde, 0x55, 0x5d, 0xbf, 0xc5, 0x5d, 0xd8, 0xfa, 0x5e, 0xac,
  0xd8, 0x2b, 0xe7, 0x1b, 0x96, 0x1f, 0xb2, 0x16, 0x0e, 0x81, 0x44, 0xb4,
  0x4d, 0xbc, 0x5a, 0xc8, 0x12, 0x2d, 0x77, 0x52, 0x2f, 0x57, 0x09, 0x45,
  0x29, 0x9c, 0x40, 0xbb, 0x35, 0x2d, 0x05, 0xd8, 0xc5, 0x57, 0xf2, 0x57,
  0x1c, 0xc7, 0x94, 0x71, 0x30, 0x3c, 0x9c, 0x2b, 0xdd, 0xf0, 0xc8, 0xcd,
  0xb9, 0x16, 0x03, 0x42, 0xf0, 0x07, 0x24, 0x16, 0xc6, 0x12, 0x07, 0x0c,
  0xa9, 0x08, 0xac, 0xc8, 0x81, 0x31, 0x2e, 0xe3, 0xc5, 0xd8, 0x41, 0xc4,
  0xc5, 0x18, 0xd1, 0xe6, 0x2c, 0x3f, 0x2a, 0x31, 0x09, 0xdb, 0xee, 0x5b,
  0xc0, 0xaa, 0x4e, 0x9b, 0xfe, 0x84, 0x34, 0x23, 0x10, 0xd5, 0x0a, 0xfe,
  0x1f, 0xf6, 0x32, 0xe0, 0x0b, 0xfe, 0x5a, 0x31, 0x16, 0xdd, 0xd4, 0xb1,
  0xf7, 0xf1, 0xa1, 0xa7, 0xdb, 0x39, 0xd2, 0xbc, 0x69, 0xef, 0x21, 0x7f,
  0x98, 0xf2, 0x0e, 0xf7, 0x37, 0x2a, 0x14, 0xf9, 0x2d, 0x29, 0x2e, 0xe3,
  0x00, 0x43, 0x3e, 0x4d, 0x34, 0xd3, 0x18, 0xbc, 0x1e, 0x14, 0xee, 0x01,
  0x97, 0x42, 0xcb, 0xca, 0x3b, 0x54, 0x41, 0x17, 0x0e, 0xdd, 0x25, 0xdb,
  0x4a, 0xcc, 0xf5, 0x60, 0x44, 0xaf, 0x04, 0xb0, 0x60, 0x4b, 0xc5, 0x77,
  0xef, 0x9e, 0xc8, 0xc6, 0xd1, 0xd2, 0xdc, 0x18, 0x4d, 0x66, 0xdd, 0x7a,
  0xdb, 0xdf, 0xf5, 0x16, 0x59, 0x12, 0x07, 0xb4, 0x17, 0x1f, 0xa6, 0x1f,
  0x67, 0xb8, 0xff, 0xfd, 0xce, 0x51, 0x4b, 0x52, 0xc8, 0x01, 0x7f, 0x45,
  0xd8, 0xfc, 0x50, 0x7a, 0x5f, 0xb4, 0x95, 0x3e, 0x58, 0xc7, 0x9e, 0xa5,
  0x1d, 0x1c, 0x54, 0xfe, 0xa4, 0x69, 0x13, 0xa7, 0xcc, 0x59, 0x57, 0xbb,
  0xf8, 0x4e, 0xb3, 0xe2, 0xf2, 0x60, 0xb6, 0xd5, 0x7f, 0x10, 0xce, 0x11,
  0x37, 0x58, 0x44, 0xe4, 0x3a, 0xf5, 0x03, 0xd8, 0x8c, 0x98, 0x1f, 0xf1,
  0x4a, 0x41, 0x07, 0xb5, 0xe9, 0x14, 0x4e, 0x49, 0x8e, 0xad, 0x54, 0xaa,
  0x5d, 0xac, 0x93, 0x67, 0xaf, 0x8e, 0xce, 0x19, 0x78, 0x0b, 0xa1, 0x5d,
  0xa4, 0xe5, 0x12, 0xe2, 0x49, 0x0d, 0x88, 0x84, 0xb2, 0xa4, 0x9b, 0xf3,
  0x17, 0xe1, 0x18, 0x79, 0x82, 0xd5, 0x33, 0x84, 0xe3, 0xa6, 0x5d, 0x40,
  0xcb, 0x17, 0x10, 0xa9, 0x2e, 0xcd, 0x5d, 0x0e, 0x9e, 0xf8, 0x23, 0x0c,
  0x32, 0x05, 0xe0, 0x73, 0xfe, 0xc8, 0x48, 0x0d, 0x39, 0xee, 0x73, 0x34,
  0x0c, 0x46, 0xa1, 0x75, 0xbc, 0x08, 0x1f, 0xd8, 0x88, 0x66, 0xd1, 0xbf,
  0x5e, 0xb7, 0xae, 0x9a, 0xfd, 0x32, 0xc1, 0x0d, 0x51, 0x48, 0x7f, 0x33,
  0x2a, 0x3f, 0xcd, 0xb9, 0x7c, 0xf9, 0xf4, 0xfb, 0x30, 0xd1, 0x87, 0x01,
  0xbb, 0x5a, 0xed, 0x45, 0xae, 0xe0, 0xeb, 0x03, 0xf8, 0xbf, 0x18, 0x5b,
  0xbb, 0xef, 0x09, 0xa5, 0x46, 0xfe, 0xfc, 0x0c, 0x36, 0xd3, 0x11, 0x13,
  0x5c, 0xc5, 0xec, 0x11, 0xbd, 0xcb, 0x4b, 0x38, 0xfe, 0x62, 0xef, 0xe8,
  0xa0, 0x32, 0xca, 0x14, 0x1a, 0x12, 0xf1, 0xdc, 0xd4, 0x41, 0xd5, 0xdd,
  0x1a, 0x3a, 0x2b, 0x2b, 0xe7, 0x0b, 0xe9, 0x1a, 0x4b, 0xd7, 0x31, 0xe3,
  0xe1, 0x23, 0x81, 0xf4, 0xd4, 0x61, 0x4a, 0x36, 0x03, 0x5f, 0x81, 0x20,
  0xc8, 0x09, 0x68, 0x00, 0xdc, 0x0b, 0xba, 0x7b, 0x50, 0x13, 0x4b, 0x99,
  0x4c, 0xce, 0xcb, 0xa4, 0xf2, 0xea, 0xb4, 0x35, 0xa3, 0x59, 0xdf, 0x39,
  0xcd, 0x6d, 0x20, 0xe5, 0x33, 0x84, 0xa4, 0x67, 0x36, 0xcc, 0xe3, 0xbf,
  0x6a, 0xcd, 0x5f, 0x01, 0xb5, 0x0b, 0x04, 0x47, 0xf8, 0x94, 0x6c, 0xa3,
  0xb1, 0x16, 0xca, 0xbc, 0x83, 0x5b, 0x6c, 0x22, 0x06, 0xc0, 0xd0, 0x96,
  0xad, 0xea, 0x97, 0x8f, 0xaf, 0x6f, 0x10, 0x6c, 0xd3, 0xa7, 0xc8, 0x6c,
  0xdd, 0x26, 0xa9, 0x1d, 0x81, 0x51, 0x1e, 0xa5, 0x6f, 0x2e, 0x86, 0x58,
  0xf7, 0xe5, 0x91, 0x0e, 0xda, 0x37, 0xe2, 0x24, 0x8a, 0x34, 0x87, 0xea,
  0x6d, 0xce, 0xc6, 0xb5, 0xba, 0x64, 0xed, 0x3d, 0x0e, 0x38, 0xcd, 0xb3,
  0x4c, 0x5f, 0x50, 0xfa, 0xf0, 0xaa, 0xb1, 0xa6, 0x44, 0x96, 0x69, 0x8e,
  0x19, 0x9d, 0x50, 0xcc, 0x86, 0x4b, 0x55, 0x69, 0xc7, 0x50, 0x30, 0xde,
  0xe8, 0xdb, 0x69, 0xf3, 0xc1, 0xe1, 0x2a, 0x01, 0x2e, 0xe5, 0x32, 0x6f,
  0xdc, 0x1f, 0x79, 0xf2, 0xea, 0xc1, 0xf6, 0x2d, 0xbc, 0x12, 0xd5, 0xb4,
  0xf3, 0x45, 0x52, 0x36, 0x5c, 0xe7, 0xb6, 0xb5, 0x24, 0x0e, 0x0b, 0xe8,
  0x52, 0x44, 0x74, 0x5b, 0x33, 0x34, 0x52, 0x2b, 0xde, 0x2f, 0x7f, 0x4b,
  0x21, 0x00, 0xeb, 0xa9, 0xc1, 0x56, 0xdb, 0xa6, 0x94, 0xf6, 0xa0, 0x89,
  0xfe, 0x96, 0x01, 0xa3, 0x06, 0x82, 0x48, 0x3a, 0x28, 0x95, 0x28, 0xc1,
  0x8e, 0x20, 0x51, 0x0d, 0x00, 0x1c, 0x81, 0x3f, 0xc0, 0x77, 0x21, 0x3d,
  0x1f, 0x8a, 0x87, 0xb5, 0x9f, 0xab, 0x63, 0xac, 0x5f, 0xa2, 0xac, 0x79,
  0x0e, 0x05, 0xe5, 0xe9, 0xbf, 0x01, 0xb1, 0x1f, 0xc3, 0x78, 0x4a, 0x60,
  0x31, 0x30, 0x03, 0xea, 0x95, 0x06, 0x70, 0xd7, 0x81, 0xc5, 0x90, 0xdc,
  0x13, 0x24, 0xe7, 0xe3, 0x2d, 0x37, 0xfb, 0x47, 0xae, 0xe6, 0xd8, 0xf2,
  0x24, 0x5f, 0xe7, 0x53, 0x61, 0x38, 0x15, 0x39, 0x4a, 0x29, 0x1e, 0x56,
  0x05, 0x4f, 0x0b, 0x37, 0xfe, 0x7f, 0xfe, 0xc0, 0xc6, 0x4c, 0xe1, 0xef,
  0x0e, 0xab, 0x3a, 0x23, 0x16, 0x1d, 0xca, 0xeb, 0xbc, 0x14, 0x0c, 0xe9,
  0xf3, 0xb3, 0x48, 0x1b, 0xbe, 0xb2, 0x38, 0x21, 0xc0, 0x14, 0x03, 0xe8,
  0x3c, 0xbe, 0x12, 0x35, 0xd2, 0xc7, 0xcf, 0xf9, 0xed, 0x16, 0xb9, 0x5f,
  0x1a, 0x76, 0xd4, 0x81, 0xde, 0xe7, 0x93, 0xee, 0x70, 0xd7, 0x4d, 0x27,
  0xf1, 0xbf, 0x6c, 0xf8, 0x29, 0xfa, 0x26, 0x33, 0xe1, 0x02, 0x59, 0xf7,
  0x1e, 0xc3, 0x39, 0x1a, 0xc5, 0xfd, 0x0e, 0xee, 0x34, 0xd9, 0x0f, 0x10,
  0xb6, 0xdd, 0x13, 0x1f, 0x26, 0xcc, 0x6b, 0x0f, 0x52, 0x66, 0x55, 0x3a,
  0x21, 0x7c, 0x1d, 0x85, 0xa4, 0xdd, 0xb9, 0x21, 0xb6, 0x91, 0x44, 0xbb,
  0xb9, 0xd3, 0x36, 0xf9, 0xb5, 0x02, 0xe7, 0xff, 0x81, 0xd6, 0x62, 0x3e,
  0x14, 0x2d, 0x08, 0x8b, 0xa3, 0x98, 0x42, 0xaa, 0x34, 0x79, 0x60, 0x94,
  0x31, 0x01, 0x28, 0x24, 0x06, 0x03, 0x37, 0xbe, 0xdb, 0xe7, 0xf0, 0xf6,
  0x6f, 0x93, 0x09, 0x4d, 0xc3, 0x26, 0x88, 0x33, 0x96, 0x0d, 0xf5, 0x4e,
  0x51, 0xef, 0xcd, 0x8b, 0x65, 0x5a, 0x19, 0x89, 0xa2, 0xe6, 0x60, 0xb5,
  0x49, 0xe4, 0x3f, 0xff, 0x5c, 0xa9, 0x5f, 0x49, 0xaf, 0xb7, 0x50, 0x09,
  0x17, 0x19, 0x87, 0x60, 0x04, 0xc4, 0xd7, 0x00, 0x3e, 0x1e, 0xf0, 0xae,
  0x4d, 0xf5, 0x27, 0xa4, 0x7f, 0x55, 0x77, 0x7b, 0x04, 0xf7, 0x4e, 0x04,
  0xf8, 0x99, 0x0c, 0x12, 0xf4, 0xbb, 0x52, 0x13, 0xc3, 0x75, 0xd2, 0x47,
  0xa6, 0x65, 0xf3, 0x1c, 0x23, 0x1d, 0xef, 0x08, 0xfb, 0x9f, 0xdb, 0x8d,
  0xb6, 0x6d, 0x1f, 0xdd, 0x51, 0xa5, 0x91, 0x22, 0x08, 0xf5, 0x40, 0x10,
  0xfa, 0x06, 0x34, 0xf6, 0x1e, 0xd0, 0x71, 0xbb, 0x5c, 0x9f, 0x1b, 0x03,
  0xb1, 0xf0, 0xed, 0x5f, 0x3e, 0x27, 0xa8, 0x29, 0xd5, 0x3b, 0xb4, 0x51,
  0xc2, 0x23, 0xdd, 0x55, 0xea, 0x36, 0xed, 0x7f, 0x21, 0xf2, 0x57, 0x4b,
  0xba, 0xb7, 0xb3, 0xae, 0x46, 0xb0, 0x3b, 0xf2, 0x63, 0xb0, 0x02, 0xa5,
  0xaa, 0x61, 0xfb, 0x1c, 0x10, 0x98, 0x67, 0xab, 0x14, 0x0e, 0xdc, 0x03,
  0x24, 0xec, 0xfe, 0x0c, 0xb5, 0x23, 0xdc, 0xb1, 0xdf, 0xc5, 0x9a, 0x06,
  0xc0, 0xc4, 0xfe, 0xbd, 0x46, 0xc6, 0x53, 0x1d, 0x37, 0x37, 0xf2, 0xc5,
  0x2e, 0x55, 0x47, 0x06, 0x01, 0x59, 0xb7, 0xf7, 0x1b, 0x20, 0x42, 0xc3,
  0xf8, 0x7f, 0xc1, 0xc1, 0xe3, 0xe8, 0xd6, 0x45, 0xbf, 0x58, 0x54, 0xbc,
  0x55, 0xaf, 0x66, 0x0a, 0x41, 0xfb, 0xb3, 0xe5, 0x68, 0x40, 0x36, 0x25,
  0x46, 0xff, 0xff, 0xff, 0x04, 0x00, 0x00, 0x00, 0x80, 0x00, 0x00, 0x00,
  0xf2, 0x11, 0x00, 0x00, 0xb3, 0x15, 0x00, 0x00, 0x00, 0x00, 0x00, 0x00,
  0x75, 0x13, 0x00, 0x00, 0xcd, 0xec, 0xff, 0xff, 0x99, 0x2b, 0x00, 0x00,
  0x19, 0xf4, 0xff, 0xff, 0x27, 0x09, 0x00, 0x00, 0x14, 0x14, 0x00, 0x00,
  0x00, 0x00, 0x00, 0x00, 0x0d, 0xff, 0xff, 0xff, 0x9a, 0x13, 0x00, 0x00,
  0x00, 0x00, 0x00, 0x00, 0x7c, 0xf3, 0xff, 0xff, 0x50, 0xf7, 0xff, 0xff,
  0x31, 0x26, 0x00, 0x00, 0x9c, 0x18, 0x00, 0x00, 0x76, 0xf6, 0xff, 0xff,
  0x55, 0x13, 0x00, 0x00, 0x00, 0x00, 0x00, 0x00, 0xb1, 0x0f, 0x00, 0x00,
  0xbc, 0x0d, 0x00, 0x00, 0xbf, 0xed, 0xff, 0xff, 0x00, 0x00, 0x00, 0x00,
  0x32, 0x13, 0x00, 0x00, 0xec, 0xf8, 0xff, 0xff, 0x68, 0x10, 0x00, 0x00,
  0x7d, 0x14, 0x00, 0x00, 0x97, 0xf0, 0xff, 0xff, 0x4f, 0x13, 0x00, 0x00,
  0x6b, 0xf7, 0xff, 0xff, 0x70, 0x0e, 0x00, 0x00, 0xd2, 0xff, 0xff, 0xff,
  0x04, 0x00, 0x00, 0x00, 0x20, 0x00, 0x00, 0x00, 0x3f, 0x81, 0x81, 0x39,
  0xfc, 0xda, 0x92, 0x5a, 0x11, 0xb3, 0x3f, 0x3a, 0xeb, 0xef, 0xb6, 0xe3,
  0x67, 0x8f, 0x60, 0x5e, 0x68, 0x77, 0xcf, 0x35, 0x1a, 0xda, 0x2f, 0x43,
  0x83, 0x11, 0xb5, 0x67, 0x00, 0x00, 0x06, 0x00, 0x08, 0x00, 0x04, 0x00,
  0x06, 0x00, 0x00, 0x00, 0x04, 0x00, 0x00, 0x00, 0x04, 0x00, 0x00, 0x00,
  0x10, 0x0b, 0x00, 0x00, 0x84, 0xff, 0xff, 0xff, 0x88, 0xff, 0xff, 0xff,
  0x0f, 0x00, 0x00, 0x00, 0x4d, 0x4c, 0x49, 0x52, 0x20, 0x43, 0x6f, 0x6e,
  0x76, 0x65, 0x72, 0x74, 0x65, 0x64, 0x2e, 0x00, 0x01, 0x00, 0x00, 0x00,
  0x14, 0x00, 0x00, 0x00, 0x00, 0x00, 0x0e, 0x00, 0x18, 0x00, 0x14, 0x00,
  0x10, 0x00, 0x0c, 0x00, 0x08, 0x00, 0x04, 0x00, 0x0e, 0x00, 0x00, 0x00,
  0x14, 0x00, 0x00, 0x00, 0x1c, 0x00, 0x00, 0x00, 0xdc, 0x00, 0x00, 0x00,
  0xe0, 0x00, 0x00, 0x00, 0xe4, 0x00, 0x00, 0x00, 0x04, 0x00, 0x00, 0x00,
  0x6d, 0x61, 0x69, 0x6e, 0x00, 0x00, 0x00, 0x00, 0x03, 0x00, 0x00, 0x00,
  0x84, 0x00, 0x00, 0x00, 0x3c, 0x00, 0x00, 0x00, 0x04, 0x00, 0x00, 0x00,
  0x96, 0xff, 0xff, 0xff, 0x14, 0x00, 0x00, 0x00, 0x00, 0x00, 0x00, 0x08,
  0x10, 0x00, 0x00, 0x00, 0x14, 0x00, 0x00, 0x00, 0x04, 0x00, 0x04, 0x00,
  0x04, 0x00, 0x00, 0x00, 0x01, 0x00, 0x00, 0x00, 0x09, 0x00, 0x00, 0x00,
  0x03, 0x00, 0x00, 0x00, 0x08, 0x00, 0x00, 0x00, 0x02, 0x00, 0x00, 0x00,
  0x01, 0x00, 0x00, 0x00, 0xca, 0xff, 0xff, 0xff, 0x10, 0x00, 0x00, 0x00,
  0x00, 0x00, 0x00, 0x08, 0x10, 0x00, 0x00, 0x00, 0x14, 0x00, 0x00, 0x00,
  0xba, 0xff, 0xff, 0xff, 0x00, 0x00, 0x00, 0x01, 0x01, 0x00, 0x00, 0x00,
  0x08, 0x00, 0x00, 0x00, 0x03, 0x00, 0x00, 0x00, 0x07, 0x00, 0x00, 0x00,
  0x04, 0x00, 0x00, 0x00, 0x03, 0x00, 0x00, 0x00, 0x00, 0x00, 0x0e, 0x00,
  0x16, 0x00, 0x00, 0x00, 0x10, 0x00, 0x0c, 0x00, 0x0b, 0x00, 0x04, 0x00,
  0x0e, 0x00, 0x00, 0x00, 0x18, 0x00, 0x00, 0x00, 0x00, 0x00, 0x00, 0x08,
  0x18, 0x00, 0x00, 0x00, 0x1c, 0x00, 0x00, 0x00, 0x00, 0x00, 0x06, 0x00,
  0x08, 0x00, 0x07, 0x00, 0x06, 0x00, 0x00, 0x00, 0x00, 0x00, 0x00, 0x01,
  0x01, 0x00, 0x00, 0x00, 0x07, 0x00, 0x00, 0x00, 0x03, 0x00, 0x00, 0x00,
  0x00, 0x00, 0x00, 0x00, 0x06, 0x00, 0x00, 0x00, 0x05, 0x00, 0x00, 0x00,
  0x01, 0x00, 0x00, 0x00, 0x09, 0x00, 0x00, 0x00, 0x01, 0x00, 0x00, 0x00,
  0x00, 0x00, 0x00, 0x00, 0x0a, 0x00, 0x00, 0x00, 0x44, 0x0d, 0x00, 0x00,
  0xcc, 0x0c, 0x00, 0x00, 0x50, 0x0c, 0x00, 0x00, 0x7c, 0x0a, 0x00, 0x00,
  0xa0, 0x08, 0x00, 0x00, 0x4c, 0x05, 0x00, 0x00, 0xf0, 0x01, 0x00, 0x00,
  0x3c, 0x01, 0x00, 0x00, 0x80, 0x00, 0x00, 0x00, 0x04, 0x00, 0x00, 0x00,
  0xfa, 0xf2, 0xff, 0xff, 0x00, 0x00, 0x00, 0x01, 0x18, 0x00, 0x00, 0x00,
  0x20, 0x00, 0x00, 0x00, 0x3c, 0x00, 0x00, 0x00, 0x0a, 0x00, 0x00, 0x00,
  0x00, 0x00, 0x00, 0x09, 0x50, 0x00, 0x00, 0x00, 0x02, 0x00, 0x00, 0x00,
  0xff, 0xff, 0xff, 0xff, 0x01, 0x00, 0x00, 0x00, 0xe4, 0xf2, 0xff, 0xff,
  0x08, 0x00, 0x00, 0x00, 0x10, 0x00, 0x00, 0x00, 0x01, 0x00, 0x00, 0x00,
  0x8c, 0xff, 0xff, 0xff, 0xff, 0xff, 0xff, 0xff, 0x01, 0x00, 0x00, 0x00,
  0xae, 0x4e, 0xa8, 0x3b, 0x1b, 0x00, 0x00, 0x00, 0x53, 0x74, 0x61, 0x74,
  0x65, 0x66, 0x75, 0x6c, 0x50, 0x61, 0x72, 0x74, 0x69, 0x74, 0x69, 0x6f,
  0x6e, 0x65, 0x64, 0x43, 0x61, 0x6c, 0x6c, 0x5f, 0x31, 0x3a, 0x30, 0x00,
  0x02, 0x00, 0x00, 0x00, 0x01, 0x00, 0x00, 0x00, 0x01, 0x00, 0x00, 0x00,
  0x72, 0xf3, 0xff, 0xff, 0x00, 0x00, 0x00, 0x01, 0x18, 0x00, 0x00, 0x00,
  0x20, 0x00, 0x00, 0x00, 0x3c, 0x00, 0x00, 0x00, 0x09, 0x00, 0x00, 0x00,
  0x00, 0x00, 0x00, 0x09, 0x90, 0x00, 0x00, 0x00, 0x02, 0x00, 0x00, 0x00,
  0xff, 0xff, 0xff, 0xff, 0x20, 0x00, 0x00, 0x00, 0x5c, 0xf3, 0xff, 0xff,
  0x08, 0x00, 0x00, 0x00, 0x10, 0x00, 0x00, 0x00, 0x01, 0x00, 0x00, 0x00,
  0x80, 0xff, 0xff, 0xff, 0xff, 0xff, 0xff, 0xff, 0x01, 0x00, 0x00, 0x00,
  0x20, 0xc1, 0x41, 0x3b, 0x58, 0x00, 0x00, 0x00, 0x73, 0x65, 0x71, 0x75,
  0x65, 0x6e, 0x74, 0x69, 0x61, 0x6c, 0x5f, 0x31, 0x2f, 0x64, 0x65, 0x6e,
  0x73, 0x65, 0x5f, 0x31, 0x5f, 0x32, 0x2f, 0x4d, 0x61, 0x74, 0x4d, 0x75,
  0x6c, 0x3b, 0x73, 0x65, 0x71, 0x75, 0x65, 0x6e, 0x74, 0x69, 0x61, 0x6c,
  0x5f, 0x31, 0x2f, 0x64, 0x65, 0x6e, 0x73, 0x65, 0x5f, 0x31, 0x5f, 0x32,
  0x2f, 0x52, 0x65, 0x6c, 0x75, 0x3b, 0x73, 0x65, 0x71, 0x75, 0x65, 0x6e,
  0x74, 0x69, 0x61, 0x6c, 0x5f, 0x31, 0x2f, 0x64, 0x65, 0x6e, 0x73, 0x65,
  0x5f, 0x31, 0x5f, 0x32, 0x2f, 0x42, 0x69, 0x61, 0x73, 0x41, 0x64, 0x64,
  0x00, 0x00, 0x00, 0x00, 0x02, 0x00, 0x00, 0x00, 0x01, 0x00, 0x00, 0x00,
  0x20, 0x00, 0x00, 0x00, 0x2a, 0xf4, 0xff, 0xff, 0x00, 0x00, 0x00, 0x01,
  0x18, 0x00, 0x00, 0x00, 0x20, 0x00, 0x00, 0x00, 0x3c, 0x00, 0x00, 0x00,
  0x08, 0x00, 0x00, 0x00, 0x00, 0x00, 0x00, 0x09, 0x88, 0x00, 0x00, 0x00,
  0x02, 0x00, 0x00, 0x00, 0xff, 0xff, 0xff, 0xff, 0x40, 0x00, 0x00, 0x00,
  0x14, 0xf4, 0xff, 0xff, 0x08, 0x00, 0x00, 0x00, 0x10, 0x00, 0x00, 0x00,
  0x01, 0x00, 0x00, 0x00, 0x80, 0xff, 0xff, 0xff, 0xff, 0xff, 0xff, 0xff,
  0x01, 0x00, 0x00, 0x00, 0xa3, 0x08, 0x1e, 0x3b, 0x52, 0x00, 0x00, 0x00,
  0x73, 0x65, 0x71, 0x75, 0x65, 0x6e, 0x74, 0x69, 0x61, 0x6c, 0x5f, 0x31,
  0x2f, 0x64, 0x65, 0x6e, 0x73, 0x65, 0x5f, 0x31, 0x2f, 0x4d, 0x61, 0x74,
  0x4d, 0x75, 0x6c, 0x3b, 0x73, 0x65, 0x71, 0x75, 0x65, 0x6e, 0x74, 0x69,
  0x61, 0x6c, 0x5f, 0x31, 0x2f, 0x64, 0x65, 0x6e, 0x73, 0x65, 0x5f, 0x31,
  0x2f, 0x52, 0x65, 0x6c, 0x75, 0x3b, 0x73, 0x65, 0x71, 0x75, 0x65, 0x6e,
  0x74, 0x69, 0x61, 0x6c, 0x5f, 0x31, 0x2f, 0x64, 0x65, 0x6e, 0x73, 0x65,
  0x5f, 0x31, 0x2f, 0x42, 0x69, 0x61, 0x73, 0x41, 0x64, 0x64, 0x00, 0x00,
  0x02, 0x00, 0x00, 0x00, 0x01, 0x00, 0x00, 0x00, 0x40, 0x00, 0x00, 0x00,
  0x4e, 0xf5, 0xff, 0xff, 0x00, 0x00, 0x00, 0x01, 0x14, 0x00, 0x00, 0x00,
  0x28, 0x03, 0x00, 0x00, 0x07, 0x00, 0x00, 0x00, 0x00, 0x00, 0x00, 0x09,
  0x34, 0x03, 0x00, 0x00, 0xb4, 0xf4, 0xff, 0xff, 0x08, 0x00, 0x00, 0x00,
  0x0c, 0x02, 0x00, 0x00, 0x40, 0x00, 0x00, 0x00, 0x00, 0x00, 0x00, 0x00,
  0x00, 0x00, 0x00, 0x00, 0x00, 0x00, 0x00, 0x00, 0x00, 0x00, 0x00, 0x00,
  0x00, 0x00, 0x00, 0x00, 0x00, 0x00, 0x00, 0x00, 0x00, 0x00, 0x00, 0x00,
  0x00, 0x00, 0x00, 0x00, 0x00, 0x00, 0x00, 0x00, 0x00, 0x00, 0x00, 0x00,
  0x00, 0x00, 0x00, 0x00, 0x00, 0x00, 0x00, 0x00, 0x00, 0x00, 0x00, 0x00,
  0x00, 0x00, 0x00, 0x00, 0x00, 0x00, 0x00, 0x00, 0x00, 0x00, 0x00, 0x00,
  0x00, 0x00, 0x00, 0x00, 0x00, 0x00, 0x00, 0x00, 0x00, 0x00, 0x00, 0x00,
  0x00, 0x00, 0x00, 0x00, 0x00, 0x00, 0x00, 0x00, 0x00, 0x00, 0x00, 0x00,
  0x00, 0x00, 0x00, 0x00, 0x00, 0x00, 0x00, 0x00, 0x00, 0x00, 0x00, 0x00,
  0x00, 0x00, 0x00, 0x00, 0x00, 0x00, 0x00, 0x00, 0x00, 0x00, 0x00, 0x00,
  0x00, 0x00, 0x00, 0x00, 0x00, 0x00, 0x00, 0x00, 0x00, 0x00, 0x00, 0x00,
  0x00, 0x00, 0x00, 0x00, 0x00, 0x00, 0x00, 0x00, 0x00, 0x00, 0x00, 0x00,
  0x00, 0x00, 0x00, 0x00, 0x00, 0x00, 0x00, 0x00, 0x00, 0x00, 0x00, 0x00,
  0x00, 0x00, 0x00, 0x00, 0x00, 0x00, 0x00, 0x00, 0x00, 0x00, 0x00, 0x00,
  0x00, 0x00, 0x00, 0x00, 0x00, 0x00, 0x00, 0x00, 0x00, 0x00, 0x00, 0x00,
  0x00, 0x00, 0x00, 0x00, 0x00, 0x00, 0x00, 0x00, 0x00, 0x00, 0x00, 0x00,
  0x00, 0x00, 0x00, 0x00, 0x00, 0x00, 0x00, 0x00, 0x00, 0x00, 0x00, 0x00,
  0x00, 0x00, 0x00, 0x00, 0x00, 0x00, 0x00, 0x00, 0x00, 0x00, 0x00, 0x00,
  0x00, 0x00, 0x00, 0x00, 0x00, 0x00, 0x00, 0x00, 0x00, 0x00, 0x00, 0x00,
  0x00, 0x00, 0x00, 0x00, 0x00, 0x00, 0x00, 0x00, 0x00, 0x00, 0x00, 0x00,
  0x00, 0x00, 0x00, 0x00, 0x00, 0x00, 0x00, 0x00, 0x00, 0x00, 0x00, 0x00,
  0x00, 0x00, 0x00, 0x00, 0x00, 0x00, 0x00, 0x00, 0x00, 0x00, 0x00, 0x00,
  0x00, 0x00, 0x00, 0x00, 0x00, 0x00, 0x00, 0x00, 0x00, 0x00, 0x00, 0x00,
  0x00, 0x00, 0x00, 0x00, 0x00, 0x00, 0x00, 0x00, 0x00, 0x00, 0x00, 0x00,
  0x00, 0x00, 0x00, 0x00, 0x00, 0x00, 0x00, 0x00, 0x00, 0x00, 0x00, 0x00,
  0x00, 0x00, 0x00, 0x00, 0x00, 0x00, 0x00, 0x00, 0x00, 0x00, 0x00, 0x00,
  0x00, 0x00, 0x00, 0x00, 0x00, 0x00, 0x00, 0x00, 0x00, 0x00, 0x00, 0x00,
  0x00, 0x00, 0x00, 0x00, 0x00, 0x00, 0x00, 0x00, 0x00, 0x00, 0x00, 0x00,
  0x00, 0x00, 0x00, 0x00, 0x00, 0x00, 0x00, 0x00, 0x00, 0x00, 0x00, 0x00,
  0x00, 0x00, 0x00, 0x00, 0x00, 0x00, 0x00, 0x00, 0x00, 0x00, 0x00, 0x00,
  0x00, 0x00, 0x00, 0x00, 0x00, 0x00, 0x00, 0x00, 0x00, 0x00, 0x00, 0x00,
  0x00, 0x00, 0x00, 0x00, 0x00, 0x00, 0x00, 0x00, 0x00, 0x00, 0x00, 0x00,
  0x00, 0x00, 0x00, 0x00, 0x00, 0x00, 0x00, 0x00, 0x00, 0x00, 0x00, 0x00,
  0x00, 0x00, 0x00, 0x00, 0x00, 0x00, 0x00, 0x00, 0x00, 0x00, 0x00, 0x00,
  0x00, 0x00, 0x00, 0x00, 0x00, 0x00, 0x00, 0x00, 0x00, 0x00, 0x00, 0x00,
  0x00, 0x00, 0x00, 0x00, 0x00, 0x00, 0x00, 0x00, 0x00, 0x00, 0x00, 0x00,
  0x00, 0x00, 0x00, 0x00, 0x00, 0x00, 0x00, 0x00, 0x00, 0x00, 0x00, 0x00,
  0x00, 0x00, 0x00, 0x00, 0x00, 0x00, 0x00, 0x00, 0x00, 0x00, 0x00, 0x00,
  0x00, 0x00, 0x00, 0x00, 0x00, 0x00, 0x00, 0x00, 0x00, 0x00, 0x00, 0x00,
  0x00, 0x00, 0x00, 0x00, 0x00, 0x00, 0x00, 0x00, 0x00, 0x00, 0x00, 0x00,
  0x00, 0x00, 0x00, 0x00, 0x00, 0x00, 0x00, 0x00, 0x00, 0x00, 0x00, 0x00,
  0x00, 0x00, 0x00, 0x00, 0x00, 0x00, 0x00, 0x00, 0x00, 0x00, 0x00, 0x00,
  0x00, 0x00, 0x00, 0x00, 0x00, 0x00, 0x00, 0x00, 0x00, 0x00, 0x00, 0x00,
  0x00, 0x00, 0x00, 0x00, 0x00, 0x00, 0x00, 0x00, 0x40, 0x00, 0x00, 0x00,
  0xbc, 0xf3, 0x35, 0x3b, 0x8b, 0x49, 0xf6, 0x3a, 0xc7, 0x77, 0x1a, 0x3b,
  0xd5, 0xac, 0x18, 0x3b, 0xcc, 0xa6, 0x43, 0x3a, 0xf3, 0x51, 0xfa, 0x3a,
  0x4d, 0x77, 0x01, 0x3b, 0xd3, 0x8b, 0x1b, 0x3a, 0xda, 0x00, 0xb9, 0x3a,
  0xa6, 0x07, 0xc4, 0x3a, 0xda, 0x38, 0x0d, 0x3b, 0x90, 0x7d, 0xe1, 0x3a,
  0xb1, 0x2c, 0x0d, 0x3b, 0xb1, 0xfc, 0xfa, 0x3a, 0x42, 0x6b, 0x0c, 0x3b,
  0x9c, 0xd7, 0xca, 0x3a, 0xd1, 0xce, 0xe7, 0x3a, 0xfc, 0xfe, 0x26, 0x3b,
  0x33, 0x59, 0xf7, 0x3a, 0x24, 0xc8, 0x1f, 0x3b, 0x36, 0x71, 0x0a, 0x3b,
  0xf9, 0x93, 0xe3, 0x3a, 0xa1, 0x30, 0x10, 0x3b, 0xf0, 0x54, 0x11, 0x3b,
  0x7e, 0xf7, 0x04, 0x3b, 0xd6, 0xf7, 0x0a, 0x3b, 0x34, 0x18, 0x54, 0x3a,
  0x0d, 0xfd, 0x1a, 0x3b, 0x25, 0x6d, 0x06, 0x3b, 0x08, 0xaa, 0xfe, 0x3a,
  0xc5, 0x20, 0xfa, 0x3a, 0x12, 0xb4, 0x9f, 0x3a, 0x82, 0xa1, 0xb4, 0x3a,
  0x24, 0x80, 0xfc, 0x3a, 0x9a, 0xc1, 0x3b, 0x3a, 0x73, 0xa8, 0xbe, 0x3a,
  0x42, 0x3f, 0x92, 0x3a, 0x49, 0xa1, 0x0e, 0x3b, 0xc7, 0x30, 0xd0, 0x3a,
  0x30, 0xdf, 0xae, 0x3a, 0xf5, 0xd0, 0x12, 0x3b, 0x4c, 0x72, 0x3b, 0x3a,
  0xe2, 0xb6, 0x2c, 0x3a, 0x27, 0x68, 0x2a, 0x3a, 0xae, 0x88, 0x03, 0x3b,
  0x45, 0xcd, 0x06, 0x3b, 0x79, 0xbd, 0xad, 0x3a, 0x83, 0x8a, 0xc4, 0x3a,
  0x38, 0x0c, 0x04, 0x3b, 0xa1, 0x03, 0xfd, 0x3a, 0x31, 0xf5, 0xe6, 0x3a,
  0xe8, 0x50, 0xc4, 0x3a, 0xa9, 0x3c, 0x03, 0x3b, 0x8d, 0x18, 0x82, 0x3a,
  0x7a, 0x0b, 0xa1, 0x3a, 0xb6, 0x3c, 0x03, 0x3b, 0xcb, 0x00, 0xd1, 0x3a,
  0x95, 0x9a, 0x01, 0x3b, 0xc1, 0x0a, 0x11, 0x3b, 0x18, 0xcf, 0x14, 0x3b,
  0x0f, 0xb2, 0xef, 0x3a, 0x36, 0xec, 0x0d, 0x3b, 0xb5, 0xa2, 0x15, 0x3b,
  0xe5, 0x65, 0x0c, 0x3b, 0x12, 0x00, 0x00, 0x00, 0x74, 0x66, 0x6c, 0x2e,
  0x70, 0x73, 0x65, 0x75, 0x64, 0x6f, 0x5f, 0x71, 0x63, 0x6f, 0x6e, 0x73,
  0x74, 0x35, 0x00, 0x00, 0x02, 0x00, 0x00, 0x00, 0x40, 0x00, 0x00, 0x00,
  0x03, 0x00, 0x00, 0x00, 0xa6, 0xf8, 0xff, 0xff, 0x00, 0x00, 0x00, 0x01,
  0x14, 0x00, 0x00, 0x00, 0x24, 0x03, 0x00, 0x00, 0x06, 0x00, 0x00, 0x00,
  0x00, 0x00, 0x00, 0x02, 0x30, 0x03, 0x00, 0x00, 0x0c, 0xf8, 0xff, 0xff,
  0x08, 0x00, 0x00, 0x00, 0x08, 0x02, 0x00, 0x00, 0x40, 0x00, 0x00, 0x00,
  0x00, 0x00, 0x00, 0x00, 0x00, 0x00, 0x00, 0x00, 0x00, 0x00, 0x00, 0x00,
  0x00, 0x00, 0x00, 0x00, 0x00, 0x00, 0x00, 0x00, 0x00, 0x00, 0x00, 0x00,
  0x00, 0x00, 0x00, 0x00, 0x00, 0x00, 0x00, 0x00, 0x00, 0x00, 0x00, 0x00,
  0x00, 0x00, 0x00, 0x00, 0x00, 0x00, 0x00, 0x00, 0x00, 0x00, 0x00, 0x00,
  0x00, 0x00, 0x00, 0x00, 0x00, 0x00, 0x00, 0x00, 0x00, 0x00, 0x00, 0x00,
  0x00, 0x00, 0x00, 0x00, 0x00, 0x00, 0x00, 0x00, 0x00, 0x00, 0x00, 0x00,
  0x00, 0x00, 0x00, 0x00, 0x00, 0x00, 0x00, 0x00, 0x00, 0x00, 0x00, 0x00,
  0x00, 0x00, 0x00, 0x00, 0x00, 0x00, 0x00, 0x00, 0x00, 0x00, 0x00, 0x00,
  0x00, 0x00, 0x00, 0x00, 0x00, 0x00, 0x00, 0x00, 0x00, 0x00, 0x00, 0x00,
  0x00, 0x00, 0x00, 0x00, 0x00, 0x00, 0x00, 0x00, 0x00, 0x00, 0x00, 0x00,
  0x00, 0x00, 0x00, 0x00, 0x00, 0x00, 0x00, 0x00, 0x00, 0x00, 0x00, 0x00,
  0x00, 0x00, 0x00, 0x00, 0x00, 0x00, 0x00, 0x00, 0x00, 0x00, 0x00, 0x00,
  0x00, 0x00, 0x00, 0x00, 0x00, 0x00, 0x00, 0x00, 0x00, 0x00, 0x00, 0x00,
  0x00, 0x00, 0x00, 0x00, 0x00, 0x00, 0x00, 0x00, 0x00, 0x00, 0x00, 0x00,
  0x00, 0x00, 0x00, 0x00, 0x00, 0x00, 0x00, 0x00, 0x00, 0x00, 0x00, 0x00,
  0x00, 0x00, 0x00, 0x00, 0x00, 0x00, 0x00, 0x00, 0x00, 0x00, 0x00, 0x00,
  0x00, 0x00, 0x00, 0x00, 0x00, 0x00, 0x00, 0x00, 0x00, 0x00, 0x00, 0x00,
  0x00, 0x00, 0x00, 0x00, 0x00, 0x00, 0x00, 0x00, 0x00, 0x00, 0x00, 0x00,
  0x00, 0x00, 0x00, 0x00, 0x00, 0x00, 0x00, 0x00, 0x00, 0x00, 0x00, 0x00,
  0x00, 0x00, 0x00, 0x00, 0x00, 0x00, 0x00, 0x00, 0x00, 0x00, 0x00, 0x00,
  0x00, 0x00, 0x00, 0x00, 0x00, 0x00, 0x00, 0x00, 0x00, 0x00, 0x00, 0x00,
  0x00, 0x00, 0x00, 0x00, 0x00, 0x00, 0x00, 0x00, 0x00, 0x00, 0x00, 0x00,
  0x00, 0x00, 0x00, 0x00, 0x00, 0x00, 0x00, 0x00, 0x00, 0x00, 0x00, 0x00,
  0x00, 0x00, 0x00, 0x00, 0x00, 0x00, 0x00, 0x00, 0x00, 0x00, 0x00, 0x00,
  0x00, 0x00, 0x00, 0x00, 0x00, 0x00, 0x00, 0x00, 0x00, 0x00, 0x00, 0x00,
  0x00, 0x00, 0x00, 0x00, 0x00, 0x00, 0x00, 0x00, 0x00, 0x00, 0x00, 0x00,
  0x00, 0x00, 0x00, 0x00, 0x00, 0x00, 0x00, 0x00, 0x00, 0x00, 0x00, 0x00,
  0x00, 0x00, 0x00, 0x00, 0x00, 0x00, 0x00, 0x00, 0x00, 0x00, 0x00, 0x00,
  0x00, 0x00, 0x00, 0x00, 0x00, 0x00, 0x00, 0x00, 0x00, 0x00, 0x00, 0x00,
  0x00, 0x00, 0x00, 0x00, 0x00, 0x00, 0x00, 0x00, 0x00, 0x00, 0x00, 0x00,
  0x00, 0x00, 0x00, 0x00, 0x00, 0x00, 0x00, 0x00, 0x00, 0x00, 0x00, 0x00,
  0x00, 0x00, 0x00, 0x00, 0x00, 0x00, 0x00, 0x00, 0x00, 0x00, 0x00, 0x00,
  0x00, 0x00, 0x00, 0x00, 0x00, 0x00, 0x00, 0x00, 0x00, 0x00, 0x00, 0x00,
  0x00, 0x00, 0x00, 0x00, 0x00, 0x00, 0x00, 0x00, 0x00, 0x00, 0x00, 0x00,
  0x00, 0x00, 0x00, 0x00, 0x00, 0x00, 0x00, 0x00, 0x00, 0x00, 0x00, 0x00,
  0x00, 0x00, 0x00, 0x00, 0x00, 0x00, 0x00, 0x00, 0x00, 0x00, 0x00, 0x00,
  0x00, 0x00, 0x00, 0x00, 0x00, 0x00, 0x00, 0x00, 0x00, 0x00, 0x00, 0x00,
  0x00, 0x00, 0x00, 0x00, 0x00, 0x00, 0x00, 0x00, 0x00, 0x00, 0x00, 0x00,
  0x00, 0x00, 0x00, 0x00, 0x00, 0x00, 0x00, 0x00, 0x00, 0x00, 0x00, 0x00,
  0x00, 0x00, 0x00, 0x00, 0x00, 0x00, 0x00, 0x00, 0x00, 0x00, 0x00, 0x00,
  0x00, 0x00, 0x00, 0x00, 0x00, 0x00, 0x00, 0x00, 0x00, 0x00, 0x00, 0x00,
  0x00, 0x00, 0x00, 0x00, 0x00, 0x00, 0x00, 0x00, 0x00, 0x00, 0x00, 0x00,
  0x00, 0x00, 0x00, 0x00, 0x00, 0x00, 0x00, 0x00, 0x40, 0x00, 0x00, 0x00,
  0x5f, 0xaa, 0x36, 0x37, 0xc1, 0x40, 0xf7, 0x36, 0xd3, 0x12, 0x1b, 0x37,
  0x15, 0x46, 0x19, 0x37, 0x2f, 0x6b, 0x44, 0x36, 0x35, 0x4d, 0xfb, 0x36,
  0x41, 0xf9, 0x01, 0x37, 0xf4, 0x27, 0x1c, 0x36, 0x8d, 0xba, 0xb9, 0x36,
  0x6a, 0xcc, 0xc4, 0x36, 0x9b, 0xc6, 0x0d, 0x37, 0xe6, 0x5f, 0xe2, 0x36,
  0x65, 0xba, 0x0d, 0x37, 0x9f, 0xf8, 0xfb, 0x36, 0x34, 0xf8, 0x0c, 0x37,
  0x37, 0xa3, 0xcb, 0x36, 0x7f, 0xb7, 0xe8, 0x36, 0x9b, 0xa6, 0x27, 0x37,
  0x7a, 0x51, 0xf8, 0x36, 0x86, 0x68, 0x20, 0x37, 0x2c, 0xfc, 0x0a, 0x37,
  0x68, 0x78, 0xe4, 0x36, 0x5c, 0xc1, 0x10, 0x37, 0xd1, 0xe6, 0x11, 0x37,
  0xf5, 0x7c, 0x05, 0x37, 0x53, 0x83, 0x0b, 0x37, 0x18, 0xed, 0x54, 0x36,
  0x9f, 0x98, 0x1b, 0x37, 0x13, 0xf4, 0x06, 0x37, 0xa7, 0xa9, 0xff, 0x36,
  0xd6, 0x1b, 0xfb, 0x36, 0x60, 0x54, 0xa0, 0x36, 0xd1, 0x56, 0xb5, 0x36,
  0x97, 0x7d, 0xfd, 0x36, 0x10, 0x7e, 0x3c, 0x36, 0xd3, 0x67, 0xbf, 0x36,
  0x0e, 0xd2, 0x92, 0x36, 0x73, 0x30, 0x0f, 0x37, 0xc0, 0x01, 0xd1, 0x36,
  0xb7, 0x8e, 0xaf, 0x36, 0x53, 0x64, 0x13, 0x37, 0x72, 0x2e, 0x3c, 0x36,
  0x3f, 0x64, 0x2d, 0x36, 0x33, 0x13, 0x2b, 0x36, 0xb5, 0x0c, 0x04, 0x37,
  0x94, 0x54, 0x07, 0x37, 0xdd, 0x6b, 0xae, 0x36, 0xca, 0x4f, 0xc5, 0x36,
  0xc3, 0x90, 0x04, 0x37, 0x98, 0x01, 0xfe, 0x36, 0x04, 0xdd, 0xe7, 0x36,
  0xf6, 0x15, 0xc5, 0x36, 0x64, 0xc0, 0x03, 0x37, 0x23, 0x9b, 0x82, 0x36,
  0x20, 0xad, 0xa1, 0x36, 0x71, 0xc0, 0x03, 0x37, 0x95, 0xd2, 0xd1, 0x36,
  0xac, 0x1c, 0x02, 0x37, 0x57, 0x9c, 0x11, 0x37, 0x76, 0x64, 0x15, 0x37,
  0xa7, 0xa2, 0xf0, 0x36, 0xab, 0x7a, 0x0e, 0x37, 0xe7, 0x38, 0x16, 0x37,
  0xd2, 0xf2, 0x0c, 0x37, 0x12, 0x00, 0x00, 0x00, 0x74, 0x66, 0x6c, 0x2e,
  0x70, 0x73, 0x65, 0x75, 0x64, 0x6f, 0x5f, 0x71, 0x63, 0x6f, 0x6e, 0x73,
  0x74, 0x34, 0x00, 0x00, 0x01, 0x00, 0x00, 0x00, 0x40, 0x00, 0x00, 0x00,
  0xf6, 0xfb, 0xff, 0xff, 0x00, 0x00, 0x00, 0x01, 0x14, 0x00, 0x00, 0x00,
  0xa8, 0x01, 0x00, 0x00, 0x05, 0x00, 0x00, 0x00, 0x00, 0x00, 0x00, 0x09,
  0xb4, 0x01, 0x00, 0x00, 0x5c, 0xfb, 0xff, 0xff, 0x08, 0x00, 0x00, 0x00,
  0x0c, 0x01, 0x00, 0x00, 0x20, 0x00, 0x00, 0x00, 0x00, 0x00, 0x00, 0x00,
  0x00, 0x00, 0x00, 0x00, 0x00, 0x00, 0x00, 0x00, 0x00, 0x00, 0x00, 0x00,
  0x00, 0x00, 0x00, 0x00, 0x00, 0x00, 0x00, 0x00, 0x00, 0x00, 0x00, 0x00,
  0x00, 0x00, 0x00, 0x00, 0x00, 0x00, 0x00, 0x00, 0x00, 0x00, 0x00, 0x00,
  0x00, 0x00, 0x00, 0x00, 0x00, 0x00, 0x00, 0x00, 0x00, 0x00, 0x00, 0x00,
  0x00, 0x00, 0x00, 0x00, 0x00, 0x00, 0x00, 0x00, 0x00, 0x00, 0x00, 0x00,
  0x00, 0x00, 0x00, 0x00, 0x00, 0x00, 0x00, 0x00, 0x00, 0x00, 0x00, 0x00,
  0x00, 0x00, 0x00, 0x00, 0x00, 0x00, 0x00, 0x00, 0x00, 0x00, 0x00, 0x00,
  0x00, 0x00, 0x00, 0x00, 0x00, 0x00, 0x00, 0x00, 0x00, 0x00, 0x00, 0x00,
  0x00, 0x00, 0x00, 0x00, 0x00, 0x00, 0x00, 0x00, 0x00, 0x00, 0x00, 0x00,
  0x00, 0x00, 0x00, 0x00, 0x00, 0x00, 0x00, 0x00, 0x00, 0x00, 0x00, 0x00,
  0x00, 0x00, 0x00, 0x00, 0x00, 0x00, 0x00, 0x00, 0x00, 0x00, 0x00, 0x00,
  0x00, 0x00, 0x00, 0x00, 0x00, 0x00, 0x00, 0x00, 0x00, 0x00, 0x00, 0x00,
  0x00, 0x00, 0x00, 0x00, 0x00, 0x00, 0x00, 0x00, 0x00, 0x00, 0x00, 0x00,
  0x00, 0x00, 0x00, 0x00, 0x00, 0x00, 0x00, 0x00, 0x00, 0x00, 0x00, 0x00,
  0x00, 0x00, 0x00, 0x00, 0x00, 0x00, 0x00, 0x00, 0x00, 0x00, 0x00, 0x00,
  0x00, 0x00, 0x00, 0x00, 0x00, 0x00, 0x00, 0x00, 0x00, 0x00, 0x00, 0x00,
  0x00, 0x00, 0x00, 0x00, 0x00, 0x00, 0x00, 0x00, 0x00, 0x00, 0x00, 0x00,
  0x00, 0x00, 0x00, 0x00, 0x00, 0x00, 0x00, 0x00, 0x00, 0x00, 0x00, 0x00,
  0x00, 0x00, 0x00, 0x00, 0x00, 0x00, 0x00, 0x00, 0x00, 0x00, 0x00, 0x00,
  0x00, 0x00, 0x00, 0x00, 0x00, 0x00, 0x00, 0x00, 0x00, 0x00, 0x00, 0x00,
  0x00, 0x00, 0x00, 0x00, 0x00, 0x00, 0x00, 0x00, 0x00, 0x00, 0x00, 0x00,
  0x00, 0x00, 0x00, 0x00, 0x20, 0x00, 0x00, 0x00, 0xe5, 0xdd, 0x23, 0x3b,
  0x0d, 0xdc, 0x50, 0x3b, 0x4b, 0xbb, 0xf6, 0x3a, 0x21, 0x83, 0x22, 0x3b,
  0xb6, 0x4f, 0x12, 0x3b, 0xcf, 0x8b, 0x22, 0x3b, 0x04, 0xba, 0x09, 0x3b,
  0xd1, 0xe4, 0x48, 0x3b, 0xb3, 0xdd, 0x15, 0x3b, 0x77, 0x68, 0x00, 0x3b,
  0x16, 0x11, 0x70, 0x3b, 0x45, 0x76, 0x14, 0x3b, 0xab, 0x76, 0x00, 0x3b,
  0x95, 0x66, 0xfb, 0x3a, 0x20, 0xca, 0xf7, 0x3a, 0xb5, 0x11, 0x19, 0x3b,
  0xfb, 0x83, 0x48, 0x3b, 0xf0, 0x2f, 0x25, 0x3b, 0xaa, 0xd2, 0x17, 0x3b,
  0xde, 0xae, 0x00, 0x3b, 0x2d, 0xe1, 0x16, 0x3b, 0x77, 0xd6, 0x43, 0x3b,
  0x55, 0xc0, 0x02, 0x3b, 0x45, 0x42, 0xff, 0x3a, 0xc4, 0x29, 0x1a, 0x3b,
  0xb6, 0x0d, 0xfd, 0x3a, 0x08, 0x9d, 0x38, 0x3b, 0x68, 0xde, 0x0f, 0x3b,
  0xef, 0x4b, 0x07, 0x3b, 0x13, 0xc3, 0x0d, 0x3b, 0x47, 0xd4, 0x0f, 0x3b,
  0x88, 0xe1, 0x2f, 0x3b, 0x12, 0x00, 0x00, 0x00, 0x74, 0x66, 0x6c, 0x2e,
  0x70, 0x73, 0x65, 0x75, 0x64, 0x6f, 0x5f, 0x71, 0x63, 0x6f, 0x6e, 0x73,
  0x74, 0x33, 0x00, 0x00, 0x02, 0x00, 0x00, 0x00, 0x20, 0x00, 0x00, 0x00,
  0x40, 0x00, 0x00, 0x00, 0xce, 0xfd, 0xff, 0xff, 0x00, 0x00, 0x00, 0x01,
  0x14, 0x00, 0x00, 0x00, 0xa4, 0x01, 0x00, 0x00, 0x04, 0x00, 0x00, 0x00,
  0x00, 0x00, 0x00, 0x02, 0xb0, 0x01, 0x00, 0x00, 0x34, 0xfd, 0xff, 0xff,
  0x08, 0x00, 0x00, 0x00, 0x08, 0x01, 0x00, 0x00, 0x20, 0x00, 0x00, 0x00,
  0x00, 0x00, 0x00, 0x00, 0x00, 0x00, 0x00, 0x00, 0x00, 0x00, 0x00, 0x00,
  0x00, 0x00, 0x00, 0x00, 0x00, 0x00, 0x00, 0x00, 0x00, 0x00, 0x00, 0x00,
  0x00, 0x00, 0x00, 0x00, 0x00, 0x00, 0x00, 0x00, 0x00, 0x00, 0x00, 0x00,
  0x00, 0x00, 0x00, 0x00, 0x00, 0x00, 0x00, 0x00, 0x00, 0x00, 0x00, 0x00,
  0x00, 0x00, 0x00, 0x00, 0x00, 0x00, 0x00, 0x00, 0x00, 0x00, 0x00, 0x00,
  0x00, 0x00, 0x00, 0x00, 0x00, 0x00, 0x00, 0x00, 0x00, 0x00, 0x00, 0x00,
  0x00, 0x00, 0x00, 0x00, 0x00, 0x00, 0x00, 0x00, 0x00, 0x00, 0x00, 0x00,
  0x00, 0x00, 0x00, 0x00, 0x00, 0x00, 0x00, 0x00, 0x00, 0x00, 0x00, 0x00,
  0x00, 0x00, 0x00, 0x00, 0x00, 0x00, 0x00, 0x00, 0x00, 0x00, 0x00, 0x00,
  0x00, 0x00, 0x00, 0x00, 0x00, 0x00, 0x00, 0x00, 0x00, 0x00, 0x00, 0x00,
  0x00, 0x00, 0x00, 0x00, 0x00, 0x00, 0x00, 0x00, 0x00, 0x00, 0x00, 0x00,
  0x00, 0x00, 0x00, 0x00, 0x00, 0x00, 0x00, 0x00, 0x00, 0x00, 0x00, 0x00,
  0x00, 0x00, 0x00, 0x00, 0x00, 0x00, 0x00, 0x00, 0x00, 0x00, 0x00, 0x00,
  0x00, 0x00, 0x00, 0x00, 0x00, 0x00, 0x00, 0x00, 0x00, 0x00, 0x00, 0x00,
  0x00, 0x00, 0x00, 0x00, 0x00, 0x00, 0x00, 0x00, 0x00, 0x00, 0x00, 0x00,
  0x00, 0x00, 0x00, 0x00, 0x00, 0x00, 0x00, 0x00, 0x00, 0x00, 0x00, 0x00,
  0x00, 0x00, 0x00, 0x00, 0x00, 0x00, 0x00, 0x00, 0x00, 0x00, 0x00, 0x00,
  0x00, 0x00, 0x00, 0x00, 0x00, 0x00, 0x00, 0x00, 0x00, 0x00, 0x00, 0x00,
  0x00, 0x00, 0x00, 0x00, 0x00, 0x00, 0x00, 0x00, 0x00, 0x00, 0x00, 0x00,
  0x00, 0x00, 0x00, 0x00, 0x00, 0x00, 0x00, 0x00, 0x00, 0x00, 0x00, 0x00,
  0x00, 0x00, 0x00, 0x00, 0x00, 0x00, 0x00, 0x00, 0x00, 0x00, 0x00, 0x00,
  0x00, 0x00, 0x00, 0x00, 0x20, 0x00, 0x00, 0x00, 0xf5, 0x50, 0xca, 0x36,
  0xdc, 0xee, 0x00, 0x37, 0xeb, 0x4f, 0x98, 0x36, 0xd4, 0xa4, 0xc8, 0x36,
  0x44, 0xa4, 0xb4, 0x36, 0x8b, 0xaf, 0xc8, 0x36, 0xe8, 0x0a, 0xaa, 0x36,
  0x00, 0x08, 0xf8, 0x36, 0xc6, 0x07, 0xb9, 0x36, 0x9d, 0x89, 0x9e, 0x36,
  0xa5, 0x32, 0x14, 0x37, 0x02, 0x4c, 0xb7, 0x36, 0x26, 0x9b, 0x9e, 0x36,
  0xcb, 0x31, 0x9b, 0x36, 0x1c, 0xf7, 0x98, 0x36, 0x2f, 0xfc, 0xbc, 0x36,
  0x71, 0x90, 0xf7, 0x36, 0x52, 0xf2, 0xcb, 0x36, 0x48, 0x72, 0xbb, 0x36,
  0x89, 0xe0, 0x9e, 0x36, 0x22, 0x48, 0xba, 0x36, 0xf2, 0xc9, 0xf1, 0x36,
  0x3b, 0x6e, 0xa1, 0x36, 0x83, 0x93, 0x9d, 0x36, 0xf5, 0x55, 0xbe, 0x36,
  0x00, 0x37, 0x9c, 0x36, 0x4b, 0xee, 0xe3, 0x36, 0x3d, 0xa0, 0xb1, 0x36,
  0xdc, 0x0a, 0xa7, 0x36, 0x5c, 0x06, 0xaf, 0x36, 0xbc, 0x93, 0xb1, 0x36,
  0x42, 0x26, 0xd9, 0x36, 0x12, 0x00, 0x00, 0x00, 0x74, 0x66, 0x6c, 0x2e,
  0x70, 0x73, 0x65, 0x75, 0x64, 0x6f, 0x5f, 0x71, 0x63, 0x6f, 0x6e, 0x73,
  0x74, 0x32, 0x00, 0x00, 0x01, 0x00, 0x00, 0x00, 0x20, 0x00, 0x00, 0x00,
  0x9e, 0xff, 0xff, 0xff, 0x00, 0x00, 0x00, 0x01, 0x14, 0x00, 0x00, 0x00,
  0x30, 0x00, 0x00, 0x00, 0x03, 0x00, 0x00, 0x00, 0x00, 0x00, 0x00, 0x09,
  0x3c, 0x00, 0x00, 0x00, 0x04, 0xff, 0xff, 0xff, 0x08, 0x00, 0x00, 0x00,
  0x10, 0x00, 0x00, 0x00, 0x01, 0x00, 0x00, 0x00, 0x00, 0x00, 0x00, 0x00,
  0x00, 0x00, 0x00, 0x00, 0x01, 0x00, 0x00, 0x00, 0xab, 0x55, 0x57, 0x3b,
  0x12, 0x00, 0x00, 0x00, 0x74, 0x66, 0x6c, 0x2e, 0x70, 0x73, 0x65, 0x75,
  0x64, 0x6f, 0x5f, 0x71, 0x63, 0x6f, 0x6e, 0x73, 0x74, 0x31, 0x00, 0x00,
  0x02, 0x00, 0x00, 0x00, 0x01, 0x00, 0x00, 0x00, 0x20, 0x00, 0x00, 0x00,
  0x00, 0x00, 0x16, 0x00, 0x1c, 0x00, 0x18, 0x00, 0x17, 0x00, 0x10, 0x00,
  0x0c, 0x00, 0x08, 0x00, 0x00, 0x00, 0x00, 0x00, 0x00, 0x00, 0x07, 0x00,
  0x16, 0x00, 0x00, 0x00, 0x00, 0x00, 0x00, 0x01, 0x14, 0x00, 0x00, 0x00,
  0x30, 0x00, 0x00, 0x00, 0x02, 0x00, 0x00, 0x00, 0x00, 0x00, 0x00, 0x02,
  0x3c, 0x00, 0x00, 0x00, 0x7c, 0xff, 0xff, 0xff, 0x08, 0x00, 0x00, 0x00,
  0x10, 0x00, 0x00, 0x00, 0x01, 0x00, 0x00, 0x00, 0x00, 0x00, 0x00, 0x00,
  0x00, 0x00, 0x00, 0x00, 0x01, 0x00, 0x00, 0x00, 0x08, 0xfa, 0x22, 0x37,
  0x11, 0x00, 0x00, 0x00, 0x74, 0x66, 0x6c, 0x2e, 0x70, 0x73, 0x65, 0x75,
  0x64, 0x6f, 0x5f, 0x71, 0x63, 0x6f, 0x6e, 0x73, 0x74, 0x00, 0x00, 0x00,
  0x01, 0x00, 0x00, 0x00, 0x01, 0x00, 0x00, 0x00, 0x00, 0x00, 0x16, 0x00,
  0x20, 0x00, 0x1c, 0x00, 0x1b, 0x00, 0x14, 0x00, 0x10, 0x00, 0x0c, 0x00,
  0x00, 0x00, 0x00, 0x00, 0x08, 0x00, 0x07, 0x00, 0x16, 0x00, 0x00, 0x00,
  0x00, 0x00, 0x00, 0x01, 0x18, 0x00, 0x00, 0x00, 0x2c, 0x00, 0x00, 0x00,
  0x4c, 0x00, 0x00, 0x00, 0x01, 0x00, 0x00, 0x00, 0x00, 0x00, 0x00, 0x09,
  0x64, 0x00, 0x00, 0x00, 0x02, 0x00, 0x00, 0x00, 0xff, 0xff, 0xff, 0xff,
  0x03, 0x00, 0x00, 0x00, 0x0c, 0x00, 0x0c, 0x00, 0x00, 0x00, 0x00, 0x00,
  0x08, 0x00, 0x04, 0x00, 0x0c, 0x00, 0x00, 0x00, 0x08, 0x00, 0x00, 0x00,
  0x14, 0x00, 0x00, 0x00, 0x01, 0x00, 0x00, 0x00, 0x80, 0xff, 0xff, 0xff,
  0xff, 0xff, 0xff, 0xff, 0x00, 0x00, 0x00, 0x00, 0x01, 0x00, 0x00, 0x00,
  0x7b, 0x80, 0x80, 0x3b, 0x1d, 0x00, 0x00, 0x00, 0x73, 0x65, 0x72, 0x76,
  0x69, 0x6e, 0x67, 0x5f, 0x64, 0x65, 0x66, 0x61, 0x75, 0x6c, 0x74, 0x5f,
  0x69, 0x6e, 0x70, 0x75, 0x74, 0x5f, 0x6c, 0x61, 0x79, 0x65, 0x72, 0x3a,
  0x30, 0x00, 0x00, 0x00, 0x02, 0x00, 0x00, 0x00, 0x01, 0x00, 0x00, 0x00,
  0x03, 0x00, 0x00, 0x00, 0x01, 0x00, 0x00, 0x00, 0x10, 0x00, 0x00, 0x00,
  0x0c, 0x00, 0x10, 0x00, 0x0f, 0x00, 0x00, 0x00, 0x08, 0x00, 0x04, 0x00,
  0x0c, 0x00, 0x00, 0x00, 0x09, 0x00, 0x00, 0x00, 0x04, 0x00, 0x00, 0x00,
  0x00, 0x00, 0x00, 0x09
};
unsigned int model_quant_tflite_len = 7096;
